<pad>	0
<unk>	0
in	-0
▁t	-1
er	-2
on	-3
▁a	-4
re	-5
at	-6
▁s	-7
en	-8
or	-9
▁c	-10
he	-11
st	-12
it	-13
ou	-14
ing	-15
an	-16
▁p	-17
al	-18
▁-	-19
le	-20
is	-21
ar	-22
▁f	-23
▁w	-24
ion	-25
▁the	-26
de	-27
▁m	-28
▁b	-29
ct	-30
ed	-31
▁(	-32
es	-33
om	-34
▁re	-35
ic	-36
▁in	-37
00	-38
▁e	-39
▁n	-40
ch	-41
▁to	-42
ent	-43
▁l	-44
▁1	-45
you	-46
▁an	-47
▁you	-48
et	-49
ro	-50
▁d	-51
0.	-52
▁T	-53
ly	-54
as	-55
##	-56
ot	-57
▁I	-58
▁th	-59
ra	-60
▁2	-61
▁S	-62
im	-63
▁is	-64
▁o	-65
un	-66
ver	-67
ut	-68
ll	-69
ation	-70
ig	-71
▁and	-72
▁h	-73
ce	-74
ve	-75
us	-76
▁[	-77
▁r	-78
ow	-79
▁st	-80
--	-81
▁C	-82
02	-83
ss	-84
▁A	-85
▁P	-86
id	-87
▁con	-88
▁`	-89
▁on	-90
ist	-91
ode	-92
▁##	-93
▁for	-94
ck	-95
▁g	-96
▁it	-97
il	-98
ke	-99
em	-100
if	-101
ter	-102
▁de	-103
se	-104
ate	-105
ab	-106
est	-107
ect	-108
▁ex	-109
▁|	-110
ur	-111
ant	-112
▁“	-113
ith	-114
pt	-115
▁G	-116
ol	-117
out	-118
ad	-119
ard	-120
and	-121
▁R	-122
am	-123
▁W	-124
▁with	-125
▁com	-126
▁v	-127
▁of	-128
▁B	-129
ul	-130
▁us	-131
▁M	-132
ity	-133
ec	-134
▁wh	-135
ag	-136
ep	-137
▁that	-138
ple	-139
el	-140
▁E	-141
ach	-142
▁pro	-143
per	-144
ure	-145
▁Th	-146
lo	-147
qu	-148
1:	-149
ire	-150
ri	-151
▁F	-152
ine	-153
12	-154
ay	-155
▁not	-156
▁or	-157
th	-158
▁If	-159
▁L	-160
▁lo	-161
▁3	-162
▁D	-163
▁your	-164
026	-165
▁###	-166
int	-167
ore	-168
ex	-169
▁N	-170
um	-171
▁can	-172
▁2026	-173
iz	-174
▁+	-175
ive	-176
able	-177
ir	-178
=0.	-179
igh	-180
odel	-181
ally	-182
rom	-183
4:	-184
ap	-185
16	-186
▁O	-187
▁The	-188
▁---	-189
ile	-190
▁be	-191
ess	-192
nt	-193
==	-194
ort	-195
▁"	-196
act	-197
PU	-198
end	-199
up	-200
▁2026-	-201
to	-202
02-	-203
ork	-204
ers	-205
▁H	-206
▁/	-207
▁ass	-208
▁2026-02-	-209
▁5	-210
sh	-211
erver	-212
▁Y	-213
▁sh	-214
3.	-215
od	-216
000	-217
▁12	-218
).	-219
pl	-220
put	-221
▁ne	-222
ost	-223
ult	-224
ack	-225
ext	-226
ust	-227
▁model	-228
▁do	-229
ory	-230
all	-231
ight	-232
ence	-233
for	-234
▁run	-235
istant	-236
4.	-237
▁at	-238
rain	-239
▁sc	-240
▁assistant	-241
ere	-242
ind	-243
▁—	-244
ment	-245
▁You	-246
py	-247
▁sy	-248
56	-249
po	-250
ake	-251
ain	-252
▁are	-253
ill	-254
ac	-255
stem	-256
▁cont	-257
pro	-258
7.	-259
fer	-260
ld	-261
▁en	-262
▁im	-263
pe	-264
▁un	-265
▁as	-266
50	-267
▁GPU	-268
ry	-269
▁me	-270
ction	-271
zach	-272
age	-273
ast	-274
uard	-275
ff	-276
2.	-277
▁ch	-278
▁se	-279
ject	-280
▁user	-281
▁this	-282
ud	-283
▁U	-284
▁but	-285
][	-286
▁j	-287
ass	-288
iv	-289
14	-290
▁from	-291
▁ac	-292
get	-293
Guard	-294
ireGuard	-295
▁→	-296
▁.	-297
ken	-298
▁Wh	-299
":	-300
▁al	-301
ite	-302
82	-303
com	-304
▁le	-305
ang	-306
:0	-307
ib	-308
0.0.	-309
▁4	-310
▁St	-311
ike	-312
art	-313
ign	-314
▁if	-315
----	-316
emory	-317
ru	-318
51	-319
nd	-320
ail	-321
te	-322
▁This	-323
arch	-324
▁we	-325
ould	-326
heck	-327
▁V	-328
▁ev	-329
ip	-330
ide	-331
▁ar	-332
op	-333
▁ad	-334
ase	-335
mar	-336
ia	-337
1.	-338
▁qu	-339
),	-340
▁In	-341
▁pre	-342
-4	-343
ub	-344
▁system	-345
con	-346
▁ke	-347
ans	-348
▁0	-349
urn	-350
du	-351
10	-352
▁work	-353
are	-354
▁test	-355
▁no	-356
7.0.0.	-357
port	-358
▁=	-359
▁cl	-360
▁out	-361
██	-362
7.0.0.1:	-363
cy	-364
hes	-365
LM	-366
▁k	-367
ress	-368
ward	-369
ime	-370
▁pat	-371
▁pe	-372
▁pl	-373
▁comp	-374
inf	-375
bo	-376
▁so	-377
ical	-378
30.	-379
▁conf	-380
▁like	-381
1)	-382
ility	-383
uil	-384
ave	-385
-2	-386
▁2026-02-16	-387
ong	-388
ions	-389
▁sp	-390
▁That	-391
▁inter	-392
▁per	-393
ies	-394
ix	-395
..	-396
▁one	-397
▁up	-398
nect	-399
▁what	-400
cess	-401
ning	-402
rou	-403
info	-404
Server	-405
turn	-406
.8	-407
TU	-408
ev	-409
ak	-410
gh	-411
ame	-412
:4	-413
ener	-414
WireGuard	-415
━━	-416
ug	-417
ice	-418
form	-419
mand	-420
▁K	-421
▁wr	-422
ated	-423
▁14:	-424
▁by	-425
▁#	-426
▁2026-02-12	-427
▁fe	-428
ows	-429
ance	-430
▁train	-431
uild	-432
TUN	-433
▁ver	-434
ink	-435
og	-436
▁peer	-437
ded	-438
▁rout	-439
ents	-440
▁want	-441
ick	-442
ates	-443
andsh	-444
▁res	-445
ific	-446
pen	-447
andshake	-448
ace	-449
eb	-450
oth	-451
▁2.	-452
ulti	-453
──	-454
▁(7	-455
):	-456
cu	-457
▁0.	-458
ually	-459
▁into	-460
3.56	-461
17	-462
▁have	-463
▁Ex	-464
4.14	-465
4.143.56	-466
▁requ	-467
ial	-468
▁2)	-469
▁he	-470
:2	-471
ote	-472
ization	-473
one	-474
▁memory	-475
der	-476
▁1.	-477
5182	-478
atch	-479
fter	-480
ror	-481
▁act	-482
nel	-483
80	-484
▁Con	-485
▁set	-486
▁inst	-487
▁exper	-488
▁(74.143.56	-489
^^	-490
ram	-491
",	-492
wr	-493
ds	-494
▁ret	-495
▁check	-496
▁only	-497
30	-498
▁all	-499
▁What	-500
▁6	-501
ue	-502
aus	-503
▁log	-504
▁key	-505
search	-506
urre	-507
▁token	-508
▁->	-509
0000	-510
stra	-511
vid	-512
▁te	-513
cal	-514
▁req	-515
vi	-516
▁server	-517
32	-518
ge	-519
ssh	-520
▁ag	-521
jects	-522
itect	-523
▁Com	-524
SH	-525
read	-526
own	-527
ens	-528
▁127.0.0.1:	-529
ations	-530
▁tr	-531
test	-532
▁over	-533
▁Ad	-534
▁real	-535
CI	-536
▁need	-537
ull	-538
▁Re	-539
ruct	-540
chitect	-541
yth	-542
work	-543
cl	-544
ound	-545
ize	-546
mote	-547
ph	-548
▁comple	-549
▁ab	-550
▁*	-551
▁som	-552
ok	-553
▁bec	-554
-2-	-555
ending	-556
▁just	-557
66	-558
90	-559
gine	-560
ference	-561
.0	-562
ax	-563
ci	-564
ption	-565
▁ob	-566
ator	-567
ract	-568
so	-569
ata	-570
▁connect	-571
▁chang	-572
ics	-573
====	-574
sy	-575
irst	-576
▁Pro	-577
▁On	-578
▁more	-579
▁val	-580
ints	-581
ask	-582
ual	-583
vidia	-584
▁	-585
.84:	-586
.84:5182	-587
▁rig	-588
rough	-589
.84:51821)	-590
pp	-591
udget	-592
39	-593
urrent	-594
04	-595
warding	-596
ible	-597
ash	-598
▁gener	-599
CIe	-600
ich	-601
vel	-602
file	-603
▁after	-604
ability	-605
▁It	-606
▁12:	-607
▁tra	-608
ary	-609
▁config	-610
ition	-611
▁vs	-612
33	-613
▁8	-614
▁po	-615
ency	-616
ser	-617
▁output	-618
▁build	-619
ier	-620
chitecture	-621
▁dif	-622
▁go	-623
▁3.	-624
orre	-625
we	-626
ous	-627
its	-628
▁dis	-629
`,	-630
▁use	-631
▁pass	-632
sc	-633
min	-634
our	-635
▁co	-636
▁does	-637
▁1)	-638
tern	-639
ower	-640
▁exact	-641
ings	-642
▁file	-643
/1	-644
ient	-645
▁now	-646
▁init	-647
▁met	-648
15	-649
▁ty	-650
dev	-651
▁sl	-652
arget	-653
▁dec	-654
hing	-655
▁step	-656
sp	-657
▁SSH	-658
ces	-659
▁Run	-660
25	-661
▁So	-662
▁sec	-663
LLM	-664
▁>	-665
ty	-666
ample	-667
▁state	-668
ench	-669
65	-670
ution	-671
▁Sending	-672
1-	-673
▁pr	-674
▁code	-675
ically	-676
▁Q	-677
rompt	-678
▁PCIe	-679
▁Feb	-680
hesis	-681
2.30.	-682
ultiple	-683
ause	-684
▁tests	-685
▁without	-686
ule	-687
ative	-688
eline	-689
cite	-690
ript	-691
ature	-692
DA	-693
▁em	-694
▁cre	-695
ath	-696
▁cle	-697
▁still	-698
▁context	-699
OS	-700
ms	-701
▁\	-702
▁bas	-703
▁sm	-704
.”	-705
ful	-706
load	-707
▁ro	-708
▁new	-709
▁fail	-710
rying	-711
▁will	-712
8.	-713
9.	-714
▁handshake	-715
▁should	-716
ays	-717
▁--	-718
▁path	-719
▁get	-720
ther	-721
▁don	-722
aste	-723
oc	-724
ump	-725
▁Gen	-726
pre	-727
plement	-728
hed	-729
▁par	-730
=0.000	-731
▁ep	-732
mark	-733
ating	-734
▁add	-735
▁training	-736
ew	-737
lock	-738
orrect	-739
ble	-740
ify	-741
▁constra	-742
▁sim	-743
fore	-744
▁time	-745
▁did	-746
ceiv	-747
▁has	-748
▁how	-749
iation	-750
vers	-751
no	-752
▁spec	-753
▁when	-754
fe	-755
▁then	-756
▁fix	-757
19	-758
ict	-759
error	-760
ree	-761
▁exist	-762
2.30.30.	-763
▁ent	-764
indows	-765
▁secon	-766
ready	-767
▁which	-768
olic	-769
▁lear	-770
ention	-771
enchmark	-772
of	-773
cre	-774
22	-775
very	-776
▁i	-777
▁see	-778
▁tell	-779
99	-780
","	-781
▁def	-782
▁bo	-783
--------	-784
34	-785
hase	-786
run	-787
iment	-788
nthesis	-789
▁WireGuard	-790
▁where	-791
etwork	-792
ps	-793
pos	-794
▁3)	-795
fl	-796
ptim	-797
▁under	-798
ructure	-799
ason	-800
ving	-801
▁sub	-802
━━━━	-803
be	-804
▁request	-805
▁initiation	-806
▁Add	-807
▁bet	-808
▁Your	-809
▁su	-810
▁str	-811
24	-812
ven	-813
▁port	-814
▁command	-815
oding	-816
▁than	-817
:\	-818
io	-819
▁lat	-820
IP	-821
plic	-822
▁ser	-823
▁routing	-824
led	-825
uth	-826
ferent	-827
54	-828
PI	-829
sign	-830
6.	-831
gra	-832
eval	-833
▁ap	-834
▁high	-835
▁first	-836
odes	-837
▁actually	-838
unnel	-839
rd	-840
ware	-841
▁nvidia	-842
▁dist	-843
▁same	-844
remote	-845
62	-846
▁models	-847
token	-848
▁any	-849
AT	-850
ama	-851
time	-852
rid	-853
▁already	-854
35	-855
▁hard	-856
ied	-857
▁IP	-858
▁exp	-859
▁engine	-860
%|	-861
ux	-862
▁7	-863
▁bl	-864
▁:	-865
ines	-866
▁through	-867
ta	-868
▁No	-869
forwarding	-870
▁comput	-871
20	-872
istic	-873
▁complete	-874
550	-875
text	-876
▁oper	-877
▁fl	-878
ount	-879
ome	-880
▁~	-881
irect	-882
▁somet	-883
▁task	-884
SE	-885
ness	-886
▁acc	-887
command	-888
▁prompt	-889
▁eval	-890
37	-891
AM	-892
▁jump	-893
=1.	-894
▁via	-895
▁correct	-896
iss	-897
▁they	-898
▁architecture	-899
ari	-900
▁different	-901
▁make	-902
▁plan	-903
box	-904
▁deb	-905
/1000	-906
▁	-907
e	-908
t	-909
a	-910
i	-911
o	-912
n	-913
s	-914
r	-915
l	-916
c	-917
d	-918
h	-919
u	-920
p	-921
m	-922
-	-923
g	-924
.	-925
f	-926
y	-927
0	-928
:	-929
1	-930
b	-931
2	-932
w	-933
v	-934
k	-935
,	-936
4	-937
)	-938
3	-939
5	-940
6	-941
(	-942
_	-943
/	-944
S	-945
#	-946
I	-947
T	-948
x	-949
P	-950
8	-951
A	-952
`	-953
7	-954
C	-955
=	-956
9	-957
[	-958
]	-959
"	-960
G	-961
R	-962
M	-963
L	-964
E	-965
U	-966
’	-967
N	-968
D	-969
B	-970
W	-971
|	-972
O	-973
q	-974
z	-975
F	-976
“	-977
”	-978
j	-979
H	-980
\	-981
+	-982
V	-983
Y	-984
'	-985
—	-986
>	-987
%	-988
K	-989
█	-990
→	-991
?	-992
;	-993
*	-994
━	-995
{	-996
─	-997
	-998
}	-999
^	-1000
Q	-1001
<	-1002
–	-1003
~	-1004
	-1005
	-1006
X	-1007
Z	-1008
@	-1009
&	-1010
J	-1011
✅	-1012
×	-1013
‐	-1014
!	-1015
│	-1016
$	-1017
️	-1018
≤	-1019
≈	-1020
▌	-1021
